06 fa f3 e4 00 12 fe f5 18 1e fd 00 17 03 ee 0e 0d de f1 2e ed fb ed ea 05 46 f5 e9 ee 12 fd dc 15 fa 02 f1 11 0a e2 f9 0e d8 0e 25 00 e9 f4 0d
12 1b 3f 13 f8 fc 09 0a f9 f9 17 28 0d 23 0f ee f8 d9 0a e2 e8 ca f8 10 0a cb 3a f9 ec ef f3 26 df 0f 18 15 fc fd 1a f3 0e 09 ed e8 14 f4 04 f9
ea f0 f5 f3 e7 f8 09 14 eb e2 0d 27 20 14 ee c4 1d e4 f8 0c 0d e9 f8 0d 27 03 2a 0b ff 08 0a 1f eb e6 d3 d2 00 fc 15 0d 3f 15 1b 12 02 f0 e4 e9
c8 c7 0f 0a e4 eb fe 18 0f e5 f7 f0 d7 cc f9 0f 07 03 14 09 00 f0 04 eb 12 fe 0c 1d 2f 0c 0a 04 e1 ef ec 00 fc 31 1b ea 02 f8 f0 f2 ee 00 33 04
23 32 2a 31 1d 0c fb 0b fb 0c f3 08 06 0d 18 0c f4 08 ec f1 17 2a 05 1c 00 c5 f6 f0 ed d5 fc fc 01 fc 13 2b 05 e2 06 fd f2 d0 fb ec 0a 00 e8 f3
14 16 db f2 12 1a e4 bb 00 02 0c fa d3 f6 15 0f 00 25 f8 d9 0c 0a 03 16 26 07 fb 0f 0d 11 16 0b 06 07 f3 2e 00 fa b9 dd eb e4 df d9 00 1f 21 0f
1b 34 16 0a 12 18 fb b3 13 24 d9 e4 08 0c f6 00 f6 06 07 c2 ed fc 04 16 f9 46 24 eb bf f4 e4 e2 10 13 1b ed 0b 09 f0 f6 03 ff e8 06 03 d8 fa 07
e6 d3 e8 00 ce 07 0e 23 fc 21 fe 00 07 11 25 0e 08 dd 0a 33 07 dc ff 1f d2 c7 fc ea 15 e3 12 fc f1 e1 16 35 e2 f5 f9 0d 1e 28 18 1c 0e 00 14 ea
06 00 f7 f6 09 fd f9 f6 d7 ff f8 fb 26 fa 00 04 11 22 fd fd 04 f6 0e d9 e8 21 f8 12 09 28 03 0a 1b f6 e5 f2 eb f7 1f 0f 27 07 de e3 09 e2 fb fc
d8 d5 da f5 22 09 05 0b f9 f6 08 20 e5 f6 1c 1f e5 29 14 16 26 23 ed e8 fa f0 ad 06 0a 00 fc 0b 34 f1 ef d8 f0 08 15 02 c9 db 08 0d f8 fc 0b f8
