0612eac823141be606d8
fa1bf0c7321634d300d5
f33ff50f2adb16e8f7da
e413f30a31f20a00f6f5
00f8e7e41d1212ce0922
12fcf8eb0c1a1807fd09
fe0909fefbe4fb0ef905
f50a14180bbbb323f60b
18f9eb0ffb0013fcd7f9
1ef9e2e50c022421fff6
fd170df7f30cd9fef808
002827f008fae400fb20
170d20d706d3080726e5
032314cc0df60c11faf6
ee0feef91815f625001c
0eeec40f0c0f000e041f
0df81d07f400f60811e5
ded9e403082506dd2229
f10af814ecf8070afd14
2ee20c09f1d9c233fd16
ede80d00170ced070426
fbcae9f02a0afcdcf623
edf8f804050304ff0eed
ea100deb1c16161fd9e8
050a27120026f9d2e8fa
46cb03fec50746c721f0
f53a2a0cf6fb24fcf8ad
e9f90b1df00febea1206
eeecff2fed0dbf15090a
12ef080cd511f4e32800
fdf30a0afc16e41203fc
dc261f04fc0be2fc0a0b
15dfebe1010610f11b34
fa0fe6effc0713e1f6f1
0218d3ec13f31b16e5ef
f115d2002b2eed35f2d8
11fc00fc05000be2ebf0
0afdfc31e2fa09f5f708
e21a151b06b9f0f91f15
f9f30deafdddf60d0f02
0e0e3f02f2eb031e27c9
d80915f8d0e4ff2807db
0eed1bf0fbdfe818de08
25e812f2ecd9061ce30d
001402ee0a00030e09f8
e9f4f000001fd800e2fc
f404e433e821fa14fb0b
0df9e904f30f07eafcf8